<?xml version="1.0"?>
<opencv_storage>
<cascade>
  <stageType>BOOST</stageType>
  <featureType>LBP</featureType>
  <height>24</height>
  <width>24</width>
  <stageParams>
    <boostType>GAB</boostType>
    <minHitRate>9.9500000476837158e-01</minHitRate>
    <maxFalseAlarm>5.0000000000000000e-01</maxFalseAlarm>
    <weightTrimRate>9.4999999999999996e-01</weightTrimRate>
    <maxDepth>1</maxDepth>
    <maxWeakCount>100</maxWeakCount></stageParams>
  <featureParams>
    <maxCatCount>256</maxCatCount>
    <featSize>1</featSize></featureParams>
  <stageNum>11</stageNum>
  <stages>
    <!-- stage 0 -->
    <_>
      <maxWeakCount>4</maxWeakCount>
      <stageThreshold>-1.5432026386260986e+00</stageThreshold>
      <weakClassifiers>
        <_>
          <internalNodes>
            0 -1 15 301799807 -577302107 22895519 -637853229 184634607
            -72678772 1535841215 1064452095</internalNodes>
          <leafValues>
            -7.8973102569580078e-01 6.8946397304534912e-01</leafValues></_>
        <_>
          <internalNodes>
            0 -1 42 704650685 475583839 -1869276769 1000035657
            -1205884689 -1383464929 -1949595137 485070012</internalNodes>
          <leafValues>
            -8.0061131715774536e-01 5.6538140773773193e-01</leafValues></_>
        <_>
          <internalNodes>
            0 -1 44 -716107756 -587131628 1224753557 -783863685
            -53763377 -125177299 -1199006977 -117571605</internalNodes>
          <leafValues>
            -6.1066073179244995e-01 6.2504380941390991e-01</leafValues></_>
        <_>
          <internalNodes>
            0 -1 11 2031163359 -600582057 -1806605991 -573209508
            917582319 -547643258 -611374086 1070862970</internalNodes>
          <leafValues>
            -7.0819234848022461e-01 5.8250409364700317e-01</leafValues></_></weakClassifiers></_>
    <!-- stage 1 -->
    <_>
      <maxWeakCount>4</maxWeakCount>
      <stageThreshold>-5.8098953962326050e-01</stageThreshold>
      <weakClassifiers>
        <_>
          <internalNodes>
            0 -1 25 902895095 1062968151 1460900063 1608487449
            1031852443 1003462923 529180926 989399278</internalNodes>
          <leafValues>
            -7.7647060155868530e-01 5.1475411653518677e-01</leafValues></_>
        <_>
          <internalNodes>
            0 -1 56 -1561333249 81504271 -2010918891 -1379678001
            -1266223685 -1800683389 -1996302241 83746271</internalNodes>
          <leafValues>
            -6.6059279441833496e-01 4.9745804071426392e-01</leafValues></_>
        <_>
          <internalNodes>
            0 -1 7 -68222985 -205208757 1208143955 -984583983 1079394979
            -933007280 1895922638 2133859190</internalNodes>
          <leafValues>
            -6.9786453247070312e-01 4.4073471426963806e-01</leafValues></_>
        <_>
          <internalNodes>
            0 -1 34 528310260 905420144 -788180611 -1180626926 415307800
            -237960053 -1686107139 820260212</internalNodes>
          <leafValues>
            -7.4271172285079956e-01 4.3714195489883423e-01</leafValues></_></weakClassifiers></_>
    <!-- stage 2 -->
    <_>
      <maxWeakCount>6</maxWeakCount>
      <stageThreshold>-6.2611341476440430e-01</stageThreshold>
      <weakClassifiers>
        <_>
          <internalNodes>
            0 -1 14 2041739255 1426149471 554996035 -103594399
            1477139195 -390177641 -243042309 2146648031</internalNodes>
          <leafValues>
            -6.2250000238418579e-01 5.4363638162612915e-01</leafValues></_>
        <_>
          <internalNodes>
            0 -1 58 760741887 617412511 -662350937 -1394826547
            -576751153 -1224165990 -914115667 -1930758212</internalNodes>
          <leafValues>
            -5.2708810567855835e-01 5.5042785406112671e-01</leafValues></_>
        <_>
          <internalNodes>
            0 -1 41 634396021 -45545059 -1785711129 -1715605363
            -1365343761 -24451784 2061449375 1056190176</internalNodes>
          <leafValues>
            -7.7096903324127197e-01 4.0028044581413269e-01</leafValues></_>
        <_>
          <internalNodes>
            0 -1 28 912200415 2101362772 1342951771 -111705754
            1485031308 -1281717872 -635129170 953690324</internalNodes>
          <leafValues>
            -7.3188471794128418e-01 4.1751605272293091e-01</leafValues></_>
        <_>
          <internalNodes>
            0 -1 1 -501865972 -746519479 268439633 924707411 1351521231
            -1983184758 1351487167 346931599</internalNodes>
          <leafValues>
            -6.7383801937103271e-01 4.0444293618202209e-01</leafValues></_>
        <_>
          <internalNodes>
            0 -1 38 1430560637 -59483669 368521503 -312484793
            -1371481907 -1144470910 -505877507 -1467478732</internalNodes>
          <leafValues>
            -5.5371814966201782e-01 5.4436951875686646e-01</leafValues></_></weakClassifiers></_>
    <!-- stage 3 -->
    <_>
      <maxWeakCount>5</maxWeakCount>
      <stageThreshold>-6.9248270988464355e-01</stageThreshold>
      <weakClassifiers>
        <_>
          <internalNodes>
            0 -1 21 1844870517 -16385 -32769 -1 670916469 1073709031
            -1073790985 -8425729</internalNodes>
          <leafValues>
            -5.4895490407943726e-01 6.0443997383117676e-01</leafValues></_>
        <_>
          <internalNodes>
            0 -1 43 519190525 -1616916327 -2017759371 -291859361
            -1400045825 -643790673 -1160188248 -1090980456</internalNodes>
          <leafValues>
            -4.7348287701606750e-01 5.6616514921188354e-01</leafValues></_>
        <_>
          <internalNodes>
            0 -1 44 -111857664 -129722344 1342717973 -573455885
            -395120463 -392986587 2013301710 -252313633</internalNodes>
          <leafValues>
            -6.0611206293106079e-01 4.8926007747650146e-01</leafValues></_>
        <_>
          <internalNodes>
            0 -1 20 -17091201 -751038434 -462093858 -40837305 -405058732
            -318525439 -70770320 -34316496</internalNodes>
          <leafValues>
            -6.0861575603485107e-01 4.9897289276123047e-01</leafValues></_>
        <_>
          <internalNodes>
            0 -1 48 1963808669 944871965 -784300197 -1210502903
            -838759975 944996387 -364540687 147832728</internalNodes>
          <leafValues>
            -5.9033727645874023e-01 5.2905374765396118e-01</leafValues></_></weakClassifiers></_>
    <!-- stage 4 -->
    <_>
      <maxWeakCount>5</maxWeakCount>
      <stageThreshold>-8.0317038297653198e-01</stageThreshold>
      <weakClassifiers>
        <_>
          <internalNodes>
            0 -1 55 -2034769921 261215447 469910673 885375305 1828946319
            647725058 -2130210338 1040178415</internalNodes>
          <leafValues>
            -6.1835747957229614e-01 5.7089549303054810e-01</leafValues></_>
        <_>
          <internalNodes>
            0 -1 12 -473067724 -658251759 -2147286272 -774487741
            -1060931552 1218904080 268589825 -8946057</internalNodes>
          <leafValues>
            -5.3810673952102661e-01 5.2560234069824219e-01</leafValues></_>
        <_>
          <internalNodes>
            0 -1 4 -1060984664 -1120917346 -1056816111 465604746
            1073758337 -928767964 1078382670 2077742067</internalNodes>
          <leafValues>
            -6.4687424898147583e-01 4.2067524790763855e-01</leafValues></_>
        <_>
          <internalNodes>
            0 -1 24 1984838417 -640763449 1208287699 -639827637
            436363319 -79953910 -930735705 -226856123</internalNodes>
          <leafValues>
            -5.4853487014770508e-01 4.9197050929069519e-01</leafValues></_>
        <_>
          <internalNodes>
            0 -1 61 -1763848621 -1399565951 -1069461167 748470552
            1112906889 -897447927 -510766519 -2068319560</internalNodes>
          <leafValues>
            -5.4472726583480835e-01 4.8499387502670288e-01</leafValues></_></weakClassifiers></_>
    <!-- stage 5 -->
    <_>
      <maxWeakCount>6</maxWeakCount>
      <stageThreshold>-1.4058934450149536e+00</stageThreshold>
      <weakClassifiers>
        <_>
          <internalNodes>
            0 -1 19 1431409562 -44221539 554177927 -40557619 -121468737
            931234703 -70742101 834988698</internalNodes>
          <leafValues>
            -5.8921694755554199e-01 4.9866190552711487e-01</leafValues></_>
        <_>
          <internalNodes>
            0 -1 10 -691153921 -620700681 -534710994 -798958710
            556925399 1839415465 -1919455505 1601463409</internalNodes>
          <leafValues>
            -5.9260976314544678e-01 4.2955890297889709e-01</leafValues></_>
        <_>
          <internalNodes>
            0 -1 53 -1877480011 890882067 -1878929407 -1319644141
            -1073625644 -1874648568 -1659770555 478136619</internalNodes>
          <leafValues>
            -5.7904696464538574e-01 4.4782903790473938e-01</leafValues></_>
        <_>
          <internalNodes>
            0 -1 31 1066475351 432986397 -2129065569 -1919540262
            195538975 -393509845 -536687785 -1380972163</internalNodes>
          <leafValues>
            -5.8089900016784668e-01 5.0748914480209351e-01</leafValues></_>
        <_>
          <internalNodes>
            0 -1 37 389095231 -2126118735 -922723886 -121563949
            965049577 -343684919 -493592148 718559956</internalNodes>
          <leafValues>
            -6.9517779350280762e-01 3.5298228263854980e-01</leafValues></_>
        <_>
          <internalNodes>
            0 -1 54 -601892427 18727261 1360232734 -1847885694
            -234229585 -1777878898 949164800 -1664116533</internalNodes>
          <leafValues>
            -5.0432610511779785e-01 5.4266887903213501e-01</leafValues></_></weakClassifiers></_>
    <!-- stage 6 -->
    <_>
      <maxWeakCount>6</maxWeakCount>
      <stageThreshold>-1.3687006235122681e+00</stageThreshold>
      <weakClassifiers>
        <_>
          <internalNodes>
            0 -1 52 -318771213 -570560515 -33637124 -1107560961
            -33559172 -54657091 -1661096708 209581247</internalNodes>
          <leafValues>
            -4.8878923058509827e-01 5.3174602985382080e-01</leafValues></_>
        <_>
          <internalNodes>
            0 -1 16 -42082522 -1091584193 -1350631493 -219512904
            -168331931 -34111497 -537499850 -138938509</internalNodes>
          <leafValues>
            -4.5309373736381531e-01 5.3917354345321655e-01</leafValues></_>
        <_>
          <internalNodes>
            0 -1 46 -262564355 273765571 -1073249895 892985539
            -1694062187 -1132397305 -1191083716 144244080</internalNodes>
          <leafValues>
            -6.5905427932739258e-01 3.4818869829177856e-01</leafValues></_>
        <_>
          <internalNodes>
            0 -1 40 227815541 668591253 1157944717 496669458 42526924
            -116686718 -1444794566 1067195044</internalNodes>
          <leafValues>
            -7.3733216524124146e-01 3.3649942278862000e-01</leafValues></_>
        <_>
          <internalNodes>
            0 -1 26 -7450123 -122306407 1950888441 -753647275
            -1878953203 -1500741414 -478138265 -1075175661</internalNodes>
          <leafValues>
            -4.6962964534759521e-01 5.1457774639129639e-01</leafValues></_>
        <_>
          <internalNodes>
            0 -1 29 -599443960 1225560226 1073762579 309297666 827222440
            -939453919 943762414 336327083</internalNodes>
          <leafValues>
            -6.5516841411590576e-01 3.6972013115882874e-01</leafValues></_></weakClassifiers></_>
    <!-- stage 7 -->
    <_>
      <maxWeakCount>6</maxWeakCount>
      <stageThreshold>-1.3613022565841675e+00</stageThreshold>
      <weakClassifiers>
        <_>
          <internalNodes>
            0 -1 8 -611332749 -268254329 -2113191845 1930143011
            1218642051 -2122039230 1923302111 2133295055</internalNodes>
          <leafValues>
            -5.0181376934051514e-01 4.7996270656585693e-01</leafValues></_>
        <_>
          <internalNodes>
            0 -1 32 8923892 -573078051 -716365095 1606126088 -736444964
            -1686008951 1993610232 780927488</internalNodes>
          <leafValues>
            -6.0209953784942627e-01 3.6910185217857361e-01</leafValues></_>
        <_>
          <internalNodes>
            0 -1 23 -1613825 -5029893 -32773 -57475 -33787913 2147450751
            -188617 -5558482</internalNodes>
          <leafValues>
            -4.3382811546325684e-01 5.5150800943374634e-01</leafValues></_>
        <_>
          <internalNodes>
            0 -1 59 -1393112661 83816443 -1360036265 1614692351
            1862123351 1827127167 -2055789291 -999293700</internalNodes>
          <leafValues>
            -4.7186809778213501e-01 5.0681316852569580e-01</leafValues></_>
        <_>
          <internalNodes>
            0 -1 36 -1938548268 -1692728108 -1062919918 -105045549
            -1664571651 -56813431 139958408 212867076</internalNodes>
          <leafValues>
            -7.2396022081375122e-01 3.2516255974769592e-01</leafValues></_>
        <_>
          <internalNodes>
            0 -1 6 -309920278 -45182872 -2147200546 1749024790 14723516
            -1717075829 827772426 1123221826</internalNodes>
          <leafValues>
            -6.5863174200057983e-01 3.3074188232421875e-01</leafValues></_></weakClassifiers></_>
    <!-- stage 8 -->
    <_>
      <maxWeakCount>7</maxWeakCount>
      <stageThreshold>-8.4524345397949219e-01</stageThreshold>
      <weakClassifiers>
        <_>
          <internalNodes>
            0 -1 22 -21012489 -294913 -134086657 -317441 -376474251
            -75671549 -16809987 -561281</internalNodes>
          <leafValues>
            -3.9842209219932556e-01 5.6884872913360596e-01</leafValues></_>
        <_>
          <internalNodes>
            0 -1 9 -275071217 -661397501 -1073655398 -527265770
            1787904372 -1062336487 1652755300 -229416190</internalNodes>
          <leafValues>
            -4.7574120759963989e-01 4.5832699537277222e-01</leafValues></_>
        <_>
          <internalNodes>
            0 -1 3 -899487662 -1891594224 -1324342969 -1957093119
            17599486 -2096381756 -1581219159 -6068509</internalNodes>
          <leafValues>
            -4.7043484449386597e-01 4.7943952679634094e-01</leafValues></_>
        <_>
          <internalNodes>
            0 -1 33 490362140 492593304 -1836984961 -36198369 -519787634
            457842890 1535679389 1021590028</internalNodes>
          <leafValues>
            -6.3643282651901245e-01 3.5123434662818909e-01</leafValues></_>
        <_>
          <internalNodes>
            0 -1 39 237991797 -1652468089 -716126797 -740355967
            2056949873 -914308895 -1027420608 -1367446923</internalNodes>
          <leafValues>
            -4.9955710768699646e-01 4.3314170837402344e-01</leafValues></_>
        <_>
          <internalNodes>
            0 -1 0 159484946 -2096693054 -2104360871 425787442
            -947902321 -1727734519 1642830763 2145593141</internalNodes>
          <leafValues>
            -6.0438907146453857e-01 3.5904863476753235e-01</leafValues></_>
        <_>
          <internalNodes>
            0 -1 57 -1350673963 -1541226413 -804663267 -1577041856
            -334631799 234889395 -2130581077 1157491457</internalNodes>
          <leafValues>
            -6.2504303455352783e-01 3.8018733263015747e-01</leafValues></_></weakClassifiers></_>
    <!-- stage 9 -->
    <_>
      <maxWeakCount>7</maxWeakCount>
      <stageThreshold>-6.4044308662414551e-01</stageThreshold>
      <weakClassifiers>
        <_>
          <internalNodes>
            0 -1 18 -379685027 -1073065836 -1072971499 -641600756
            -1534232560 -1040171006 -671002528 -374115774</internalNodes>
          <leafValues>
            -5.2356022596359253e-01 4.4014084339141846e-01</leafValues></_>
        <_>
          <internalNodes>
            0 -1 51 -9046779 -176636633 527924410 1883111359 -587209587
            -1619066883 -1527801458 -118497345</internalNodes>
          <leafValues>
            -3.5231190919876099e-01 5.4926097393035889e-01</leafValues></_>
        <_>
          <internalNodes>
            0 -1 13 -206635525 -136003657 -1048717 -1352364433
            1999992821 -557057 -589826 -76217497</internalNodes>
          <leafValues>
            -3.7325987219810486e-01 5.3919458389282227e-01</leafValues></_>
        <_>
          <internalNodes>
            0 -1 5 -898962442 412152 296870042 120766736 -1039425095
            327544833 -801068779 -303892537</internalNodes>
          <leafValues>
            -5.3125053644180298e-01 3.7856432795524597e-01</leafValues></_>
        <_>
          <internalNodes>
            0 -1 60 -1448184937 771890576 -788073583 -1368243282
            -1046371837 -2134644349 -929352124 -2063733864</internalNodes>
          <leafValues>
            -5.5001348257064819e-01 4.0937161445617676e-01</leafValues></_>
        <_>
          <internalNodes>
            0 -1 27 268437320 836173905 151871783 -1214873126
            -1324769814 -109018405 470353930 769927432</internalNodes>
          <leafValues>
            -5.8988237380981445e-01 3.8904765248298645e-01</leafValues></_>
        <_>
          <internalNodes>
            0 -1 35 836113239 1488683779 -2080337765 1523343617
            -215471919 -1300133750 -1541404529 -1896947038</internalNodes>
          <leafValues>
            -4.8991000652313232e-01 4.5756596326828003e-01</leafValues></_></weakClassifiers></_>
    <!-- stage 10 -->
    <_>
      <maxWeakCount>7</maxWeakCount>
      <stageThreshold>-1.0017516613006592e+00</stageThreshold>
      <weakClassifiers>
        <_>
          <internalNodes>
            0 -1 2 -80543885 -1877836478 -134252545 -771653786
            -268674113 -1082179785 -269158401 2004320051</internalNodes>
          <leafValues>
            -4.2920848727226257e-01 4.8354935646057129e-01</leafValues></_>
        <_>
          <internalNodes>
            0 -1 49 117432277 1028378944 -2013144893 -1085681590
            -1189620189 -1979088896 -1366720421 -1107322069</internalNodes>
          <leafValues>
            -4.4704148173332214e-01 4.5619145035743713e-01</leafValues></_>
        <_>
          <internalNodes>
            0 -1 45 -85474992 -1265575611 940822857 -1521126072
            -807818929 677765217 1476395044 24324614</internalNodes>
          <leafValues>
            -5.9025716781616211e-01 3.3481574058532715e-01</leafValues></_>
        <_>
          <internalNodes>
            0 -1 17 1238250006 -259407866 1226867028 -184437757
            1101341646 -1048525606 1217118798 1994679812</internalNodes>
          <leafValues>
            -6.6371768712997437e-01 3.0715364217758179e-01</leafValues></_>
        <_>
          <internalNodes>
            0 -1 47 -19868779 336597463 -1073544094 -1139425005
            -763078625 -1205272445 -1677474904 212446085</internalNodes>
          <leafValues>
            -6.1111462116241455e-01 3.1423270702362061e-01</leafValues></_>
        <_>
          <internalNodes>
            0 -1 50 -532719575 1553006607 -1056888681 1973285271
            -1073511527 -1012203382 538542367 -1301283921</internalNodes>
          <leafValues>
            -4.6367776393890381e-01 4.9601182341575623e-01</leafValues></_>
        <_>
          <internalNodes>
            0 -1 30 365957424 1570244912 -779936263 -1828712439
            1216491458 -1189576565 -482043494 1002443008</internalNodes>
          <leafValues>
            -6.0543650388717651e-01 3.6821013689041138e-01</leafValues></_></weakClassifiers></_></stages>
  <features>
    <_>
      <rect>
        0 0 5 3</rect></_>
    <_>
      <rect>
        0 1 8 3</rect></_>
    <_>
      <rect>
        0 3 2 7</rect></_>
    <_>
      <rect>
        0 3 3 3</rect></_>
    <_>
      <rect>
        0 4 5 3</rect></_>
    <_>
      <rect>
        0 6 2 2</rect></_>
    <_>
      <rect>
        0 7 5 2</rect></_>
    <_>
      <rect>
        0 11 3 4</rect></_>
    <_>
      <rect>
        0 12 3 4</rect></_>
    <_>
      <rect>
        0 14 1 1</rect></_>
    <_>
      <rect>
        0 14 4 2</rect></_>
    <_>
      <rect>
        0 14 7 3</rect></_>
    <_>
      <rect>
        0 15 1 2</rect></_>
    <_>
      <rect>
        0 15 4 1</rect></_>
    <_>
      <rect>
        0 15 4 3</rect></_>
    <_>
      <rect>
        0 15 5 3</rect></_>
    <_>
      <rect>
        0 16 1 1</rect></_>
    <_>
      <rect>
        0 16 7 2</rect></_>
    <_>
      <rect>
        0 17 1 2</rect></_>
    <_>
      <rect>
        0 17 8 1</rect></_>
    <_>
      <rect>
        0 18 1 1</rect></_>
    <_>
      <rect>
        0 18 2 2</rect></_>
    <_>
      <rect>
        1 17 1 2</rect></_>
    <_>
      <rect>
        1 18 2 2</rect></_>
    <_>
      <rect>
        1 20 4 1</rect></_>
    <_>
      <rect>
        2 15 7 3</rect></_>
    <_>
      <rect>
        2 21 2 1</rect></_>
    <_>
      <rect>
        4 9 5 1</rect></_>
    <_>
      <rect>
        4 14 6 3</rect></_>
    <_>
      <rect>
        6 1 6 4</rect></_>
    <_>
      <rect>
        6 8 4 1</rect></_>
    <_>
      <rect>
        6 21 2 1</rect></_>
    <_>
      <rect>
        7 9 3 1</rect></_>
    <_>
      <rect>
        7 17 4 1</rect></_>
    <_>
      <rect>
        7 19 4 1</rect></_>
    <_>
      <rect>
        7 21 4 1</rect></_>
    <_>
      <rect>
        8 14 4 1</rect></_>
    <_>
      <rect>
        8 19 3 1</rect></_>
    <_>
      <rect>
        9 14 3 1</rect></_>
    <_>
      <rect>
        9 20 2 1</rect></_>
    <_>
      <rect>
        10 18 2 1</rect></_>
    <_>
      <rect>
        11 17 1 1</rect></_>
    <_>
      <rect>
        11 18 4 2</rect></_>
    <_>
      <rect>
        11 21 2 1</rect></_>
    <_>
      <rect>
        12 2 4 5</rect></_>
    <_>
      <rect>
        12 8 4 2</rect></_>
    <_>
      <rect>
        12 14 4 2</rect></_>
    <_>
      <rect>
        12 15 4 1</rect></_>
    <_>
      <rect>
        12 15 4 2</rect></_>
    <_>
      <rect>
        14 18 3 2</rect></_>
    <_>
      <rect>
        15 1 3 3</rect></_>
    <_>
      <rect>
        15 5 3 3</rect></_>
    <_>
      <rect>
        15 7 3 5</rect></_>
    <_>
      <rect>
        15 9 3 5</rect></_>
    <_>
      <rect>
        15 15 3 1</rect></_>
    <_>
      <rect>
        15 15 3 3</rect></_>
    <_>
      <rect>
        18 12 2 4</rect></_>
    <_>
      <rect>
        18 18 2 1</rect></_>
    <_>
      <rect>
        20 19 1 1</rect></_>
    <_>
      <rect>
        21 15 1 1</rect></_>
    <_>
      <rect>
        21 17 1 1</rect></_>
    <_>
      <rect>
        21 18 1 1</rect></_></features></cascade>
</opencv_storage>
